const unsigned char room_classifier_tflite[] = {
    0x1c, 0x00, 0x00, 0x00, 0x54, 0x46, 0x4c, 0x33, 0x14, 0x00, 0x20, 0x00,
    0x1c, 0x00, 0x18, 0x00, 0x14, 0x00, 0x10, 0x00, 0x0c, 0x00, 0x00, 0x00,
    0x08, 0x00, 0x04, 0x00, 0x14, 0x00, 0x00, 0x00, 0x1c, 0x00, 0x00, 0x00,
    0x98, 0x00, 0x00, 0x00, 0xf0, 0x00, 0x00, 0x00, 0xdc, 0x07, 0x00, 0x00,
    0xec, 0x07, 0x00, 0x00, 0xc0, 0x0d, 0x00, 0x00, 0x03, 0x00, 0x00, 0x00,
    0x01, 0x00, 0x00, 0x00, 0x10, 0x00, 0x00, 0x00, 0x00, 0x00, 0x0a, 0x00,
    0x10, 0x00, 0x0c, 0x00, 0x08, 0x00, 0x04, 0x00, 0x0a, 0x00, 0x00, 0x00,
    0x0c, 0x00, 0x00, 0x00, 0x1c, 0x00, 0x00, 0x00, 0x3c, 0x00, 0x00, 0x00,
    0x0f, 0x00, 0x00, 0x00, 0x73, 0x65, 0x72, 0x76, 0x69, 0x6e, 0x67, 0x5f,
    0x64, 0x65, 0x66, 0x61, 0x75, 0x6c, 0x74, 0x00, 0x01, 0x00, 0x00, 0x00,
    0x04, 0x00, 0x00, 0x00, 0x90, 0xff, 0xff, 0xff, 0x0a, 0x00, 0x00, 0x00,
    0x04, 0x00, 0x00, 0x00, 0x08, 0x00, 0x00, 0x00, 0x6f, 0x75, 0x74, 0x70,
    0x75, 0x74, 0x5f, 0x30, 0x00, 0x00, 0x00, 0x00, 0x01, 0x00, 0x00, 0x00,
    0x04, 0x00, 0x00, 0x00, 0x0a, 0xf8, 0xff, 0xff, 0x04, 0x00, 0x00, 0x00,
    0x0f, 0x00, 0x00, 0x00, 0x6b, 0x65, 0x72, 0x61, 0x73, 0x5f, 0x74, 0x65,
    0x6e, 0x73, 0x6f, 0x72, 0x5f, 0x32, 0x30, 0x00, 0x02, 0x00, 0x00, 0x00,
    0x34, 0x00, 0x00, 0x00, 0x04, 0x00, 0x00, 0x00, 0xdc, 0xff, 0xff, 0xff,
    0x0d, 0x00, 0x00, 0x00, 0x04, 0x00, 0x00, 0x00, 0x13, 0x00, 0x00, 0x00,
    0x43, 0x4f, 0x4e, 0x56, 0x45, 0x52, 0x53, 0x49, 0x4f, 0x4e, 0x5f, 0x4d,
    0x45, 0x54, 0x41, 0x44, 0x41, 0x54, 0x41, 0x00, 0x08, 0x00, 0x0c, 0x00,
    0x08, 0x00, 0x04, 0x00, 0x08, 0x00, 0x00, 0x00, 0x0c, 0x00, 0x00, 0x00,
    0x04, 0x00, 0x00, 0x00, 0x13, 0x00, 0x00, 0x00, 0x6d, 0x69, 0x6e, 0x5f,
    0x72, 0x75, 0x6e, 0x74, 0x69, 0x6d, 0x65, 0x5f, 0x76, 0x65, 0x72, 0x73,
    0x69, 0x6f, 0x6e, 0x00, 0x0e, 0x00, 0x00, 0x00, 0xe8, 0x06, 0x00, 0x00,
    0xe0, 0x06, 0x00, 0x00, 0x90, 0x06, 0x00, 0x00, 0x74, 0x06, 0x00, 0x00,
    0xa4, 0x05, 0x00, 0x00, 0x94, 0x01, 0x00, 0x00, 0x04, 0x01, 0x00, 0x00,
    0xb4, 0x00, 0x00, 0x00, 0xac, 0x00, 0x00, 0x00, 0xa4, 0x00, 0x00, 0x00,
    0x9c, 0x00, 0x00, 0x00, 0x94, 0x00, 0x00, 0x00, 0x74, 0x00, 0x00, 0x00,
    0x04, 0x00, 0x00, 0x00, 0xbe, 0xf8, 0xff, 0xff, 0x04, 0x00, 0x00, 0x00,
    0x60, 0x00, 0x00, 0x00, 0x10, 0x00, 0x00, 0x00, 0x00, 0x00, 0x00, 0x00,
    0x08, 0x00, 0x0e, 0x00, 0x08, 0x00, 0x04, 0x00, 0x08, 0x00, 0x00, 0x00,
    0x10, 0x00, 0x00, 0x00, 0x24, 0x00, 0x00, 0x00, 0x00, 0x00, 0x06, 0x00,
    0x08, 0x00, 0x04, 0x00, 0x06, 0x00, 0x00, 0x00, 0x04, 0x00, 0x00, 0x00,
    0x00, 0x00, 0x00, 0x00, 0x0c, 0x00, 0x18, 0x00, 0x14, 0x00, 0x10, 0x00,
    0x0c, 0x00, 0x04, 0x00, 0x0c, 0x00, 0x00, 0x00, 0x86, 0x22, 0x9a, 0xc5,
    0x6e, 0xb5, 0x88, 0x43, 0x02, 0x00, 0x00, 0x00, 0x02, 0x00, 0x00, 0x00,
    0x04, 0x00, 0x00, 0x00, 0x06, 0x00, 0x00, 0x00, 0x32, 0x2e, 0x32, 0x30,
    0x2e, 0x30, 0x00, 0x00, 0x2a, 0xf9, 0xff, 0xff, 0x04, 0x00, 0x00, 0x00,
    0x10, 0x00, 0x00, 0x00, 0x31, 0x2e, 0x35, 0x2e, 0x30, 0x00, 0x00, 0x00,
    0x00, 0x00, 0x00, 0x00, 0x00, 0x00, 0x00, 0x00, 0x24, 0xf4, 0xff, 0xff,
    0x28, 0xf4, 0xff, 0xff, 0x2c, 0xf4, 0xff, 0xff, 0x30, 0xf4, 0xff, 0xff,
    0x56, 0xf9, 0xff, 0xff, 0x04, 0x00, 0x00, 0x00, 0x40, 0x00, 0x00, 0x00,
    0xf3, 0xc3, 0x64, 0x3e, 0x59, 0x17, 0xd2, 0x3e, 0x91, 0xe7, 0x08, 0x3c,
    0x08, 0x06, 0xe9, 0xbd, 0x50, 0x76, 0x01, 0xbe, 0xc1, 0x26, 0xef, 0x3e,
    0xc5, 0xad, 0x59, 0xbc, 0x4c, 0x7d, 0x97, 0x3e, 0xfc, 0x60, 0x28, 0x3f,
    0xcb, 0xf9, 0x93, 0x3e, 0x14, 0xe2, 0xbe, 0x3e, 0xe2, 0x4d, 0x18, 0xbe,
    0x7b, 0xd4, 0x60, 0x3d, 0x48, 0x90, 0xcb, 0x3e, 0xc3, 0xa4, 0x11, 0xbe,
    0xa6, 0x9e, 0x63, 0x3e, 0xa2, 0xf9, 0xff, 0xff, 0x04, 0x00, 0x00, 0x00,
    0x80, 0x00, 0x00, 0x00, 0x55, 0xe5, 0x4f, 0x3e, 0x54, 0x4a, 0x2a, 0x3f,
    0xa5, 0xea, 0x26, 0x3f, 0xed, 0xda, 0x8e, 0x3d, 0xbe, 0x96, 0x79, 0x3e,
    0x61, 0x47, 0xec, 0xbe, 0x78, 0xbc, 0x0e, 0x3e, 0x73, 0x58, 0x53, 0x3f,
    0xed, 0xa2, 0x9a, 0xbc, 0xf7, 0x1c, 0x2c, 0x3f, 0x13, 0xd4, 0x39, 0x3f,
    0xad, 0x8c, 0xaa, 0x3d, 0xf2, 0x9a, 0x55, 0xbf, 0x82, 0x12, 0xce, 0x3e,
    0x80, 0xef, 0xea, 0xbe, 0x77, 0x69, 0xa4, 0xbe, 0x1a, 0xd1, 0xea, 0xbe,
    0x8b, 0xcb, 0x77, 0x3d, 0x0d, 0xd2, 0xc6, 0x3e, 0x50, 0x36, 0x66, 0xbe,
    0x39, 0xd5, 0x50, 0xbf, 0x53, 0x32, 0x4a, 0x3f, 0x17, 0xee, 0x19, 0xbe,
    0xbf, 0x9f, 0xf4, 0x3e, 0x1a, 0x90, 0x2f, 0xbe, 0xb3, 0x8e, 0x4b, 0xbf,
    0x96, 0x6f, 0x14, 0x3f, 0x23, 0xa2, 0xcf, 0x3d, 0xa2, 0xef, 0x26, 0xbf,
    0x5e, 0x22, 0xb7, 0xbe, 0x90, 0x10, 0x2a, 0x3f, 0xbf, 0x81, 0xfa, 0x3e,
    0x2e, 0xfa, 0xff, 0xff, 0x04, 0x00, 0x00, 0x00, 0x00, 0x04, 0x00, 0x00,
    0x93, 0x3a, 0xcf, 0xbe, 0x15, 0xd5, 0x90, 0xbe, 0x6a, 0x72, 0xfa, 0x3e,
    0x29, 0x4e, 0x1f, 0x3e, 0x2f, 0x75, 0x6d, 0xbe, 0x35, 0x0c, 0x97, 0xbe,
    0x30, 0xb0, 0x96, 0xbe, 0x68, 0xfc, 0x19, 0x3e, 0xf7, 0xe6, 0x26, 0x3e,
    0xa1, 0xdd, 0xb4, 0x3e, 0x4c, 0x1b, 0xbb, 0xbe, 0x8a, 0x63, 0xd9, 0x3c,
    0x34, 0xc7, 0x75, 0x3c, 0x35, 0x77, 0x8b, 0xbe, 0x70, 0xe1, 0x1c, 0x3f,
    0xbf, 0x94, 0x05, 0x3e, 0xba, 0x3d, 0xd6, 0x3e, 0xbe, 0xb5, 0x82, 0xbf,
    0xed, 0xa9, 0x80, 0xbf, 0x1a, 0x4e, 0x86, 0x3e, 0x90, 0xfd, 0x60, 0x3d,
    0xc2, 0x67, 0x3b, 0xbf, 0xc9, 0x6f, 0x51, 0x3f, 0x8c, 0x2e, 0xb7, 0x3e,
    0x4f, 0xd5, 0x82, 0x3e, 0x72, 0x30, 0x4f, 0xbe, 0xe7, 0xb2, 0x30, 0x3f,
    0xdd, 0x38, 0x16, 0x3f, 0xf8, 0x38, 0xc2, 0x3e, 0xb4, 0x8d, 0x81, 0xbf,
    0x29, 0xc6, 0x15, 0x3e, 0x51, 0x5d, 0x3f, 0xbe, 0xbf, 0x1e, 0x33, 0x3e,
    0x8b, 0x61, 0xd1, 0x3a, 0x95, 0x7b, 0x59, 0xbc, 0x12, 0x1e, 0x6c, 0xbf,
    0x35, 0x73, 0x63, 0xbf, 0x7b, 0x5a, 0xc6, 0x3d, 0xe3, 0x86, 0x3c, 0xbe,
    0xe4, 0x91, 0x43, 0x3e, 0xd6, 0xe8, 0x74, 0x3e, 0xf6, 0x8f, 0x58, 0xbe,
    0x1d, 0x48, 0x36, 0x3f, 0xdf, 0xaa, 0x22, 0xbe, 0x18, 0x98, 0x83, 0xbe,
    0x0d, 0x86, 0xb9, 0x3e, 0x82, 0x17, 0x82, 0xbe, 0xe2, 0x72, 0x0a, 0xbf,
    0x07, 0xc5, 0x79, 0x3e, 0x15, 0x43, 0xcf, 0x3d, 0x66, 0xf1, 0xae, 0xbe,
    0xe1, 0x2f, 0xb0, 0x3d, 0x93, 0x7f, 0x05, 0xbd, 0x83, 0x12, 0x33, 0x3f,
    0x20, 0x61, 0xf4, 0xbe, 0x24, 0x96, 0x71, 0xbe, 0x23, 0x9a, 0x3a, 0x3e,
    0x61, 0x2b, 0x96, 0x3d, 0x86, 0xef, 0x98, 0x3e, 0xc4, 0xc7, 0x11, 0xbf,
    0x0b, 0xc0, 0xaf, 0xbe, 0x21, 0x43, 0xb2, 0x3e, 0xf9, 0x1e, 0xd0, 0xbe,
    0xd2, 0x46, 0xea, 0xbe, 0x8c, 0x07, 0x18, 0x3f, 0xa6, 0x7b, 0xb2, 0x3e,
    0xae, 0xb6, 0x44, 0xbe, 0x70, 0x44, 0xbb, 0xbe, 0xed, 0x90, 0x90, 0x3c,
    0x5f, 0xf7, 0x23, 0x3f, 0xa7, 0xa3, 0xb9, 0x3c, 0x4b, 0x5b, 0xb0, 0x3e,
    0x38, 0x8b, 0x5a, 0x3e, 0xb8, 0x29, 0x4b, 0x3e, 0x98, 0xaf, 0xbb, 0xbe,
    0x3b, 0xa9, 0x06, 0xbf, 0x1e, 0x4c, 0x4e, 0xbe, 0xcc, 0x1a, 0xb4, 0x3e,
    0xad, 0x66, 0x2a, 0xbf, 0x27, 0xc6, 0x08, 0x3f, 0x90, 0xa2, 0x23, 0x3e,
    0xc5, 0x9a, 0x01, 0xbf, 0xdd, 0x1d, 0x91, 0xbe, 0x08, 0xc9, 0x8a, 0x3e,
    0xd9, 0xd7, 0x3c, 0x3e, 0x69, 0xe8, 0xf9, 0xbd, 0xe9, 0x9d, 0xa0, 0xbd,
    0x46, 0xca, 0x39, 0x3e, 0x66, 0x6d, 0xa1, 0x3d, 0x0b, 0x05, 0xc8, 0x3e,
    0x12, 0x07, 0xf9, 0xbe, 0x9d, 0xf4, 0x03, 0x3e, 0xc6, 0x83, 0x38, 0x3e,
    0x43, 0xf7, 0xb8, 0x3d, 0x1b, 0x6c, 0xe3, 0x3e, 0x9a, 0x6e, 0x54, 0xbe,
    0x1e, 0x68, 0x94, 0xbe, 0x30, 0x16, 0xb7, 0xbe, 0x38, 0x6c, 0x59, 0xbd,
    0x70, 0xdd, 0xce, 0xbe, 0x28, 0x06, 0xd4, 0xbe, 0x80, 0x4e, 0x1c, 0xbd,
    0x0c, 0xa3, 0xd0, 0xbe, 0x8f, 0x95, 0x80, 0x3e, 0x64, 0x2a, 0xb6, 0xbd,
    0x8e, 0x38, 0x2a, 0xbe, 0xec, 0x55, 0xb4, 0x3d, 0x75, 0x36, 0xcb, 0x3e,
    0xb2, 0x89, 0x84, 0xbe, 0xbc, 0x2a, 0xe2, 0x3d, 0x51, 0x8d, 0x7f, 0xbe,
    0xb4, 0x1a, 0x10, 0xbe, 0xe7, 0x34, 0xa6, 0xbe, 0x54, 0x6d, 0x9c, 0xbc,
    0x2e, 0x78, 0x0f, 0x3f, 0x37, 0xa1, 0x98, 0xbe, 0x4f, 0x7b, 0xcc, 0x3d,
    0x63, 0x47, 0xd1, 0x3e, 0x58, 0x95, 0x29, 0xbf, 0xcc, 0x80, 0x04, 0x3f,
    0xe3, 0x66, 0xc7, 0x3e, 0xd6, 0x8e, 0xe5, 0x3e, 0x5f, 0x73, 0x3c, 0xbf,
    0x23, 0x5c, 0xca, 0xbb, 0x62, 0x2d, 0x9e, 0x3e, 0xd4, 0x7b, 0x2a, 0xbe,
    0x95, 0x31, 0xcc, 0xbd, 0xeb, 0x54, 0x90, 0x3d, 0x7d, 0x1a, 0xa6, 0x3d,
    0x52, 0x80, 0x8f, 0xbc, 0x1c, 0x2c, 0x9f, 0xbe, 0xc7, 0xd3, 0xbf, 0xbe,
    0x31, 0xba, 0xaa, 0x3c, 0x21, 0xda, 0x4e, 0x3f, 0x2a, 0xdf, 0xcf, 0xbe,
    0x56, 0xe2, 0xc7, 0x3e, 0x7e, 0xe9, 0x99, 0x3e, 0x92, 0xb1, 0x13, 0x3f,
    0x7e, 0x47, 0xf4, 0x3d, 0x1a, 0x09, 0xf8, 0xbe, 0x64, 0x6d, 0x05, 0x3d,
    0x93, 0x71, 0x10, 0x3f, 0xb0, 0x2c, 0x02, 0xbf, 0x19, 0x64, 0x9c, 0x3e,
    0x60, 0xad, 0x4f, 0xbf, 0xd1, 0xc5, 0xe7, 0xbe, 0x17, 0x37, 0x7d, 0xbe,
    0xe7, 0x22, 0xb2, 0xbd, 0x6c, 0x9e, 0x06, 0xbf, 0x64, 0xfc, 0x2a, 0xbf,
    0x44, 0x17, 0xf3, 0x3d, 0xd1, 0x86, 0x2c, 0x3f, 0xc0, 0x47, 0x2f, 0xbc,
    0x56, 0x91, 0xc5, 0xbd, 0x73, 0xb1, 0xf2, 0x3d, 0x2a, 0x5a, 0xd1, 0xbe,
    0xbc, 0x99, 0x02, 0x3f, 0x73, 0xa0, 0x1f, 0xbe, 0x94, 0x0d, 0xc9, 0x3e,
    0x62, 0xf7, 0x60, 0xbf, 0xa3, 0x06, 0x90, 0xbe, 0xaf, 0x2f, 0x45, 0xbd,
    0x85, 0xeb, 0x29, 0x3e, 0xed, 0x50, 0xac, 0x3e, 0xdc, 0xd8, 0x88, 0x3d,
    0xa8, 0x99, 0x9d, 0x3d, 0x0a, 0xb8, 0x1d, 0x3e, 0x4e, 0x13, 0x3a, 0x3e,
    0x4e, 0x43, 0xfe, 0xbe, 0x61, 0xc4, 0xc1, 0x3e, 0xd3, 0x96, 0x9e, 0x3d,
    0xb5, 0x37, 0x01, 0xbf, 0x05, 0x42, 0xdc, 0x3e, 0xcd, 0x99, 0xe3, 0x3e,
    0x02, 0x1c, 0x0a, 0xbe, 0x67, 0x09, 0x71, 0xbc, 0xb6, 0x3f, 0x33, 0xbe,
    0xb2, 0x65, 0x10, 0xbf, 0xae, 0xc9, 0x47, 0xbe, 0x62, 0x7a, 0x3f, 0x3e,
    0x6c, 0x16, 0x9f, 0x3d, 0xc5, 0xa7, 0xeb, 0xbe, 0x9e, 0x97, 0x8a, 0xbe,
    0x36, 0xdf, 0x6d, 0x3e, 0xf6, 0x7f, 0x04, 0x3e, 0x99, 0x84, 0x52, 0x3e,
    0x9b, 0x63, 0x08, 0xbf, 0xfe, 0x61, 0x64, 0x3e, 0x0e, 0x4a, 0xd1, 0x3e,
    0x92, 0x72, 0x3e, 0xbc, 0x1c, 0xb7, 0xf4, 0x3e, 0x68, 0x7f, 0xa9, 0xbe,
    0x0e, 0xd0, 0xa4, 0xbb, 0xd6, 0x38, 0xa1, 0xbe, 0x1d, 0x7f, 0x10, 0x3f,
    0x85, 0x9a, 0x76, 0x3e, 0xc5, 0x37, 0xe8, 0xbc, 0xd3, 0xbb, 0xb1, 0x3e,
    0xba, 0xd6, 0xb5, 0xbe, 0x81, 0x41, 0x11, 0xbe, 0x35, 0x2d, 0x2b, 0xbe,
    0x80, 0xc6, 0x50, 0xbe, 0x93, 0x19, 0xec, 0xbd, 0xec, 0x2a, 0x80, 0x3e,
    0x6c, 0xc7, 0x0d, 0x3f, 0xb0, 0x9f, 0xa4, 0x3d, 0x81, 0x17, 0x29, 0x3f,
    0x38, 0x17, 0xd0, 0x3c, 0xb0, 0x94, 0xba, 0xbd, 0x93, 0x4f, 0x53, 0x3e,
    0x71, 0xaa, 0xbd, 0x3e, 0x99, 0x20, 0xda, 0x3e, 0xff, 0x7e, 0xbe, 0x3e,
    0xac, 0x79, 0x06, 0x3f, 0x02, 0xc4, 0x25, 0x3d, 0x3b, 0x36, 0xec, 0x3e,
    0x36, 0x94, 0x1e, 0xbe, 0xc3, 0xae, 0x2c, 0xbe, 0xfd, 0x78, 0x04, 0xbf,
    0xb4, 0x6b, 0x93, 0x3e, 0x38, 0x33, 0xd6, 0x3e, 0x9c, 0x57, 0xc3, 0x3e,
    0xca, 0x71, 0xae, 0x3e, 0xdc, 0xc9, 0x7c, 0x3e, 0x42, 0x9d, 0x69, 0xbe,
    0xc1, 0x08, 0xd4, 0x3e, 0xa6, 0xef, 0xf9, 0x3e, 0xae, 0x88, 0xf0, 0xbe,
    0x55, 0x52, 0x0d, 0x3e, 0xf7, 0x7d, 0xc3, 0x3e, 0x02, 0x04, 0x3b, 0xbb,
    0xc2, 0x63, 0x99, 0x3e, 0xc4, 0x0a, 0x84, 0xbe, 0x25, 0xd6, 0x96, 0x3e,
    0xed, 0x70, 0x67, 0x3e, 0x26, 0xeb, 0x82, 0xbd, 0x0c, 0x40, 0xc3, 0x3e,
    0xaa, 0xe3, 0x36, 0x3f, 0x19, 0x8d, 0xf1, 0xbe, 0x67, 0x7e, 0x1d, 0xbe,
    0x4b, 0xee, 0x4e, 0x3e, 0xff, 0x50, 0x38, 0xbf, 0xa5, 0x2a, 0x4d, 0xbe,
    0x16, 0xcb, 0xe8, 0x3e, 0x97, 0x4d, 0xf3, 0x3e, 0x3d, 0x90, 0x43, 0xbe,
    0xa9, 0xdf, 0xae, 0x3e, 0xef, 0x8b, 0xd6, 0x3c, 0x1d, 0xe7, 0x49, 0x3f,
    0x53, 0xd5, 0x03, 0x3e, 0xd0, 0x18, 0x12, 0x3f, 0xc8, 0x86, 0xa1, 0x3e,
    0x2c, 0xa8, 0x97, 0xbd, 0x97, 0x14, 0xc6, 0xbe, 0x60, 0x20, 0x8d, 0x3e,
    0xc1, 0xc4, 0x9d, 0x3e, 0x3a, 0xfe, 0xff, 0xff, 0x04, 0x00, 0x00, 0x00,
    0xc0, 0x00, 0x00, 0x00, 0xe3, 0x0a, 0xc6, 0x3e, 0xc6, 0xd2, 0x72, 0xbe,
    0xeb, 0x7b, 0x82, 0xbf, 0xa0, 0xdf, 0xd3, 0x3d, 0xe6, 0xf6, 0x47, 0xbe,
    0x6b, 0x89, 0x1a, 0x3f, 0xbc, 0x35, 0x87, 0x3e, 0x28, 0x3e, 0xef, 0x3e,
    0xdd, 0xbf, 0x28, 0x3e, 0x97, 0x47, 0x82, 0xbd, 0xad, 0xe3, 0xfd, 0x3e,
    0x95, 0xf6, 0x4e, 0x3f, 0xe4, 0xce, 0x1b, 0x3f, 0x32, 0xb7, 0xfe, 0x3e,
    0x8e, 0xd2, 0xf2, 0x3e, 0xef, 0xdc, 0x82, 0xbf, 0x56, 0x8e, 0x6a, 0xbf,
    0x4d, 0x4a, 0x7f, 0x3f, 0xa8, 0x14, 0xe1, 0xbe, 0xde, 0x03, 0x77, 0xbf,
    0x99, 0xd7, 0x5b, 0xbf, 0x5e, 0xb6, 0xc4, 0xbe, 0x0e, 0x5a, 0xe8, 0x3e,
    0x49, 0xda, 0x83, 0xbf, 0xc0, 0x59, 0x9b, 0xbe, 0xfb, 0x8b, 0xc4, 0x3e,
    0xe3, 0x5c, 0x3e, 0xbd, 0x38, 0x4a, 0x92, 0xbe, 0x39, 0x9d, 0x3f, 0xbf,
    0x9d, 0xac, 0xeb, 0xbe, 0xd4, 0x03, 0x43, 0xbd, 0x30, 0x4e, 0xc1, 0x3e,
    0x4a, 0x9b, 0xea, 0xbe, 0xd1, 0x3c, 0xe2, 0xbd, 0x67, 0xf2, 0x33, 0x3f,
    0x50, 0xc8, 0x6c, 0x3f, 0x74, 0xae, 0x5f, 0x3f, 0x5b, 0xb5, 0x0a, 0xbd,
    0x94, 0x0e, 0xab, 0xbe, 0xe8, 0x70, 0xbe, 0xbe, 0xea, 0x6f, 0x63, 0x3f,
    0xf7, 0xf1, 0x78, 0xbf, 0xd4, 0x06, 0xc9, 0xbc, 0xb2, 0x5d, 0xa9, 0xbe,
    0x19, 0xc2, 0x97, 0xbe, 0x79, 0xe8, 0xd6, 0x3d, 0xe8, 0x0c, 0x19, 0x3f,
    0xbb, 0xc3, 0x00, 0xbf, 0x06, 0xff, 0xff, 0xff, 0x04, 0x00, 0x00, 0x00,
    0x0c, 0x00, 0x00, 0x00, 0x12, 0xa3, 0x9a, 0xbe, 0x4d, 0x2e, 0x3c, 0xbd,
    0xea, 0x3e, 0x82, 0x3e, 0x1e, 0xff, 0xff, 0xff, 0x04, 0x00, 0x00, 0x00,
    0x40, 0x00, 0x00, 0x00, 0x0e, 0xd7, 0xe1, 0xbd, 0x77, 0xd9, 0x4b, 0x3e,
    0x6f, 0xbe, 0xc0, 0x3e, 0xd5, 0x99, 0xf8, 0x3d, 0xf3, 0x97, 0xa5, 0x3e,
    0xc5, 0xe5, 0x88, 0xbd, 0x00, 0x00, 0x00, 0x00, 0x10, 0xae, 0x37, 0x3b,
    0xfc, 0x8f, 0xb2, 0x3e, 0xae, 0x13, 0x5e, 0x3d, 0xdf, 0x3f, 0xed, 0xbd,
    0xad, 0x2f, 0xd8, 0x3c, 0x1a, 0x0b, 0x59, 0x3c, 0x16, 0xde, 0xb0, 0xbc,
    0x60, 0x3d, 0x38, 0x3e, 0xda, 0xe8, 0x80, 0x3e, 0x48, 0xfa, 0xff, 0xff,
    0x4c, 0xfa, 0xff, 0xff, 0x0f, 0x00, 0x00, 0x00, 0x4d, 0x4c, 0x49, 0x52,
    0x20, 0x43, 0x6f, 0x6e, 0x76, 0x65, 0x72, 0x74, 0x65, 0x64, 0x2e, 0x00,
    0x01, 0x00, 0x00, 0x00, 0x14, 0x00, 0x00, 0x00, 0x00, 0x00, 0x0e, 0x00,
    0x18, 0x00, 0x14, 0x00, 0x10, 0x00, 0x0c, 0x00, 0x08, 0x00, 0x04, 0x00,
    0x0e, 0x00, 0x00, 0x00, 0x14, 0x00, 0x00, 0x00, 0x1c, 0x00, 0x00, 0x00,
    0x24, 0x01, 0x00, 0x00, 0x28, 0x01, 0x00, 0x00, 0x2c, 0x01, 0x00, 0x00,
    0x04, 0x00, 0x00, 0x00, 0x6d, 0x61, 0x69, 0x6e, 0x00, 0x00, 0x00, 0x00,
    0x04, 0x00, 0x00, 0x00, 0xcc, 0x00, 0x00, 0x00, 0x84, 0x00, 0x00, 0x00,
    0x50, 0x00, 0x00, 0x00, 0x14, 0x00, 0x00, 0x00, 0x00, 0x00, 0x0e, 0x00,
    0x1a, 0x00, 0x14, 0x00, 0x10, 0x00, 0x0c, 0x00, 0x0b, 0x00, 0x04, 0x00,
    0x0e, 0x00, 0x00, 0x00, 0x1c, 0x00, 0x00, 0x00, 0x00, 0x00, 0x00, 0x09,
    0x1c, 0x00, 0x00, 0x00, 0x20, 0x00, 0x00, 0x00, 0x01, 0x00, 0x00, 0x00,
    0x00, 0x00, 0x06, 0x00, 0x08, 0x00, 0x04, 0x00, 0x06, 0x00, 0x00, 0x00,
    0x00, 0x00, 0x80, 0x3f, 0x01, 0x00, 0x00, 0x00, 0x0a, 0x00, 0x00, 0x00,
    0x01, 0x00, 0x00, 0x00, 0x09, 0x00, 0x00, 0x00, 0x9a, 0xff, 0xff, 0xff,
    0x10, 0x00, 0x00, 0x00, 0x00, 0x00, 0x00, 0x08, 0x0c, 0x00, 0x00, 0x00,
    0x10, 0x00, 0x00, 0x00, 0x10, 0xfb, 0xff, 0xff, 0x01, 0x00, 0x00, 0x00,
    0x09, 0x00, 0x00, 0x00, 0x03, 0x00, 0x00, 0x00, 0x08, 0x00, 0x00, 0x00,
    0x03, 0x00, 0x00, 0x00, 0x02, 0x00, 0x00, 0x00, 0xca, 0xff, 0xff, 0xff,
    0x10, 0x00, 0x00, 0x00, 0x00, 0x00, 0x00, 0x08, 0x10, 0x00, 0x00, 0x00,
    0x14, 0x00, 0x00, 0x00, 0xba, 0xff, 0xff, 0xff, 0x00, 0x00, 0x00, 0x01,
    0x01, 0x00, 0x00, 0x00, 0x08, 0x00, 0x00, 0x00, 0x03, 0x00, 0x00, 0x00,
    0x07, 0x00, 0x00, 0x00, 0x04, 0x00, 0x00, 0x00, 0x01, 0x00, 0x00, 0x00,
    0x00, 0x00, 0x0e, 0x00, 0x16, 0x00, 0x00, 0x00, 0x10, 0x00, 0x0c, 0x00,
    0x0b, 0x00, 0x04, 0x00, 0x0e, 0x00, 0x00, 0x00, 0x18, 0x00, 0x00, 0x00,
    0x00, 0x00, 0x00, 0x08, 0x18, 0x00, 0x00, 0x00, 0x1c, 0x00, 0x00, 0x00,
    0x00, 0x00, 0x06, 0x00, 0x08, 0x00, 0x07, 0x00, 0x06, 0x00, 0x00, 0x00,
    0x00, 0x00, 0x00, 0x01, 0x01, 0x00, 0x00, 0x00, 0x07, 0x00, 0x00, 0x00,
    0x03, 0x00, 0x00, 0x00, 0x00, 0x00, 0x00, 0x00, 0x05, 0x00, 0x00, 0x00,
    0x06, 0x00, 0x00, 0x00, 0x01, 0x00, 0x00, 0x00, 0x0a, 0x00, 0x00, 0x00,
    0x01, 0x00, 0x00, 0x00, 0x00, 0x00, 0x00, 0x00, 0x0b, 0x00, 0x00, 0x00,
    0x18, 0x04, 0x00, 0x00, 0xc4, 0x03, 0x00, 0x00, 0x70, 0x03, 0x00, 0x00,
    0x30, 0x03, 0x00, 0x00, 0xf0, 0x02, 0x00, 0x00, 0x9c, 0x02, 0x00, 0x00,
    0x2c, 0x02, 0x00, 0x00, 0x88, 0x01, 0x00, 0x00, 0xe4, 0x00, 0x00, 0x00,
    0x60, 0x00, 0x00, 0x00, 0x04, 0x00, 0x00, 0x00, 0x2a, 0xfc, 0xff, 0xff,
    0x00, 0x00, 0x00, 0x01, 0x14, 0x00, 0x00, 0x00, 0x1c, 0x00, 0x00, 0x00,
    0x1c, 0x00, 0x00, 0x00, 0x0b, 0x00, 0x00, 0x00, 0x34, 0x00, 0x00, 0x00,
    0x02, 0x00, 0x00, 0x00, 0xff, 0xff, 0xff, 0xff, 0x03, 0x00, 0x00, 0x00,
    0x14, 0xfc, 0xff, 0xff, 0x1b, 0x00, 0x00, 0x00, 0x53, 0x74, 0x61, 0x74,
    0x65, 0x66, 0x75, 0x6c, 0x50, 0x61, 0x72, 0x74, 0x69, 0x74, 0x69, 0x6f,
    0x6e, 0x65, 0x64, 0x43, 0x61, 0x6c, 0x6c, 0x5f, 0x31, 0x3a, 0x30, 0x00,
    0x02, 0x00, 0x00, 0x00, 0x01, 0x00, 0x00, 0x00, 0x03, 0x00, 0x00, 0x00,
    0x82, 0xfc, 0xff, 0xff, 0x00, 0x00, 0x00, 0x01, 0x14, 0x00, 0x00, 0x00,
    0x1c, 0x00, 0x00, 0x00, 0x1c, 0x00, 0x00, 0x00, 0x0a, 0x00, 0x00, 0x00,
    0x5c, 0x00, 0x00, 0x00, 0x02, 0x00, 0x00, 0x00, 0xff, 0xff, 0xff, 0xff,
    0x03, 0x00, 0x00, 0x00, 0x6c, 0xfc, 0xff, 0xff, 0x42, 0x00, 0x00, 0x00,
    0x73, 0x65, 0x71, 0x75, 0x65, 0x6e, 0x74, 0x69, 0x61, 0x6c, 0x5f, 0x35,
    0x5f, 0x31, 0x2f, 0x64, 0x65, 0x6e, 0x73, 0x65, 0x5f, 0x31, 0x37, 0x5f,
    0x31, 0x2f, 0x4d, 0x61, 0x74, 0x4d, 0x75, 0x6c, 0x3b, 0x73, 0x65, 0x71,
    0x75, 0x65, 0x6e, 0x74, 0x69, 0x61, 0x6c, 0x5f, 0x35, 0x5f, 0x31, 0x2f,
    0x64, 0x65, 0x6e, 0x73, 0x65, 0x5f, 0x31, 0x37, 0x5f, 0x31, 0x2f, 0x42,
    0x69, 0x61, 0x73, 0x41, 0x64, 0x64, 0x00, 0x00, 0x02, 0x00, 0x00, 0x00,
    0x01, 0x00, 0x00, 0x00, 0x03, 0x00, 0x00, 0x00, 0x02, 0xfd, 0xff, 0xff,
    0x00, 0x00, 0x00, 0x01, 0x14, 0x00, 0x00, 0x00, 0x1c, 0x00, 0x00, 0x00,
    0x1c, 0x00, 0x00, 0x00, 0x09, 0x00, 0x00, 0x00, 0x7c, 0x00, 0x00, 0x00,
    0x02, 0x00, 0x00, 0x00, 0xff, 0xff, 0xff, 0xff, 0x10, 0x00, 0x00, 0x00,
    0xec, 0xfc, 0xff, 0xff, 0x61, 0x00, 0x00, 0x00, 0x73, 0x65, 0x71, 0x75,
    0x65, 0x6e, 0x74, 0x69, 0x61, 0x6c, 0x5f, 0x35, 0x5f, 0x31, 0x2f, 0x64,
    0x65, 0x6e, 0x73, 0x65, 0x5f, 0x31, 0x36, 0x5f, 0x31, 0x2f, 0x4d, 0x61,
    0x74, 0x4d, 0x75, 0x6c, 0x3b, 0x73, 0x65, 0x71, 0x75, 0x65, 0x6e, 0x74,
    0x69, 0x61, 0x6c, 0x5f, 0x35, 0x5f, 0x31, 0x2f, 0x64, 0x65, 0x6e, 0x73,
    0x65, 0x5f, 0x31, 0x36, 0x5f, 0x31, 0x2f, 0x52, 0x65, 0x6c, 0x75, 0x3b,
    0x73, 0x65, 0x71, 0x75, 0x65, 0x6e, 0x74, 0x69, 0x61, 0x6c, 0x5f, 0x35,
    0x5f, 0x31, 0x2f, 0x64, 0x65, 0x6e, 0x73, 0x65, 0x5f, 0x31, 0x36, 0x5f,
    0x31, 0x2f, 0x42, 0x69, 0x61, 0x73, 0x41, 0x64, 0x64, 0x00, 0x00, 0x00,
    0x02, 0x00, 0x00, 0x00, 0x01, 0x00, 0x00, 0x00, 0x10, 0x00, 0x00, 0x00,
    0xa2, 0xfd, 0xff, 0xff, 0x00, 0x00, 0x00, 0x01, 0x14, 0x00, 0x00, 0x00,
    0x1c, 0x00, 0x00, 0x00, 0x1c, 0x00, 0x00, 0x00, 0x08, 0x00, 0x00, 0x00,
    0x7c, 0x00, 0x00, 0x00, 0x02, 0x00, 0x00, 0x00, 0xff, 0xff, 0xff, 0xff,
    0x10, 0x00, 0x00, 0x00, 0x8c, 0xfd, 0xff, 0xff, 0x61, 0x00, 0x00, 0x00,
    0x73, 0x65, 0x71, 0x75, 0x65, 0x6e, 0x74, 0x69, 0x61, 0x6c, 0x5f, 0x35,
    0x5f, 0x31, 0x2f, 0x64, 0x65, 0x6e, 0x73, 0x65, 0x5f, 0x31, 0x35, 0x5f,
    0x31, 0x2f, 0x4d, 0x61, 0x74, 0x4d, 0x75, 0x6c, 0x3b, 0x73, 0x65, 0x71,
    0x75, 0x65, 0x6e, 0x74, 0x69, 0x61, 0x6c, 0x5f, 0x35, 0x5f, 0x31, 0x2f,
    0x64, 0x65, 0x6e, 0x73, 0x65, 0x5f, 0x31, 0x35, 0x5f, 0x31, 0x2f, 0x52,
    0x65, 0x6c, 0x75, 0x3b, 0x73, 0x65, 0x71, 0x75, 0x65, 0x6e, 0x74, 0x69,
    0x61, 0x6c, 0x5f, 0x35, 0x5f, 0x31, 0x2f, 0x64, 0x65, 0x6e, 0x73, 0x65,
    0x5f, 0x31, 0x35, 0x5f, 0x31, 0x2f, 0x42, 0x69, 0x61, 0x73, 0x41, 0x64,
    0x64, 0x00, 0x00, 0x00, 0x02, 0x00, 0x00, 0x00, 0x01, 0x00, 0x00, 0x00,
    0x10, 0x00, 0x00, 0x00, 0x92, 0xfe, 0xff, 0xff, 0x00, 0x00, 0x00, 0x01,
    0x10, 0x00, 0x00, 0x00, 0x10, 0x00, 0x00, 0x00, 0x07, 0x00, 0x00, 0x00,
    0x50, 0x00, 0x00, 0x00, 0x1c, 0xfe, 0xff, 0xff, 0x40, 0x00, 0x00, 0x00,
    0x73, 0x65, 0x71, 0x75, 0x65, 0x6e, 0x74, 0x69, 0x61, 0x6c, 0x5f, 0x35,
    0x5f, 0x31, 0x2f, 0x64, 0x65, 0x6e, 0x73, 0x65, 0x5f, 0x31, 0x35, 0x5f,
    0x31, 0x2f, 0x52, 0x65, 0x6c, 0x75, 0x3b, 0x73, 0x65, 0x71, 0x75, 0x65,
    0x6e, 0x74, 0x69, 0x61, 0x6c, 0x5f, 0x35, 0x5f, 0x31, 0x2f, 0x64, 0x65,
    0x6e, 0x73, 0x65, 0x5f, 0x31, 0x35, 0x5f, 0x31, 0x2f, 0x42, 0x69, 0x61,
    0x73, 0x41, 0x64, 0x64, 0x00, 0x00, 0x00, 0x00, 0x01, 0x00, 0x00, 0x00,
    0x10, 0x00, 0x00, 0x00, 0xfe, 0xfe, 0xff, 0xff, 0x00, 0x00, 0x00, 0x01,
    0x10, 0x00, 0x00, 0x00, 0x10, 0x00, 0x00, 0x00, 0x06, 0x00, 0x00, 0x00,
    0x30, 0x00, 0x00, 0x00, 0x88, 0xfe, 0xff, 0xff, 0x20, 0x00, 0x00, 0x00,
    0x73, 0x65, 0x71, 0x75, 0x65, 0x6e, 0x74, 0x69, 0x61, 0x6c, 0x5f, 0x35,
    0x5f, 0x31, 0x2f, 0x64, 0x65, 0x6e, 0x73, 0x65, 0x5f, 0x31, 0x35, 0x5f,
    0x31, 0x2f, 0x4d, 0x61, 0x74, 0x4d, 0x75, 0x6c, 0x00, 0x00, 0x00, 0x00,
    0x02, 0x00, 0x00, 0x00, 0x10, 0x00, 0x00, 0x00, 0x02, 0x00, 0x00, 0x00,
    0x4e, 0xff, 0xff, 0xff, 0x00, 0x00, 0x00, 0x01, 0x10, 0x00, 0x00, 0x00,
    0x10, 0x00, 0x00, 0x00, 0x05, 0x00, 0x00, 0x00, 0x1c, 0x00, 0x00, 0x00,
    0xd8, 0xfe, 0xff, 0xff, 0x0f, 0x00, 0x00, 0x00, 0x61, 0x72, 0x69, 0x74,
    0x68, 0x2e, 0x63, 0x6f, 0x6e, 0x73, 0x74, 0x61, 0x6e, 0x74, 0x33, 0x00,
    0x02, 0x00, 0x00, 0x00, 0x10, 0x00, 0x00, 0x00, 0x10, 0x00, 0x00, 0x00,
    0x8a, 0xff, 0xff, 0xff, 0x00, 0x00, 0x00, 0x01, 0x10, 0x00, 0x00, 0x00,
    0x10, 0x00, 0x00, 0x00, 0x04, 0x00, 0x00, 0x00, 0x1c, 0x00, 0x00, 0x00,
    0x14, 0xff, 0xff, 0xff, 0x0f, 0x00, 0x00, 0x00, 0x61, 0x72, 0x69, 0x74,
    0x68, 0x2e, 0x63, 0x6f, 0x6e, 0x73, 0x74, 0x61, 0x6e, 0x74, 0x32, 0x00,
    0x02, 0x00, 0x00, 0x00, 0x03, 0x00, 0x00, 0x00, 0x10, 0x00, 0x00, 0x00,
    0xc6, 0xff, 0xff, 0xff, 0x00, 0x00, 0x00, 0x01, 0x10, 0x00, 0x00, 0x00,
    0x10, 0x00, 0x00, 0x00, 0x03, 0x00, 0x00, 0x00, 0x1c, 0x00, 0x00, 0x00,
    0x50, 0xff, 0xff, 0xff, 0x0f, 0x00, 0x00, 0x00, 0x61, 0x72, 0x69, 0x74,
    0x68, 0x2e, 0x63, 0x6f, 0x6e, 0x73, 0x74, 0x61, 0x6e, 0x74, 0x31, 0x00,
    0x01, 0x00, 0x00, 0x00, 0x03, 0x00, 0x00, 0x00, 0x00, 0x00, 0x16, 0x00,
    0x18, 0x00, 0x14, 0x00, 0x00, 0x00, 0x10, 0x00, 0x0c, 0x00, 0x08, 0x00,
    0x00, 0x00, 0x00, 0x00, 0x00, 0x00, 0x07, 0x00, 0x16, 0x00, 0x00, 0x00,
    0x00, 0x00, 0x00, 0x01, 0x10, 0x00, 0x00, 0x00, 0x10, 0x00, 0x00, 0x00,
    0x02, 0x00, 0x00, 0x00, 0x1c, 0x00, 0x00, 0x00, 0xa0, 0xff, 0xff, 0xff,
    0x0e, 0x00, 0x00, 0x00, 0x61, 0x72, 0x69, 0x74, 0x68, 0x2e, 0x63, 0x6f,
    0x6e, 0x73, 0x74, 0x61, 0x6e, 0x74, 0x00, 0x00, 0x01, 0x00, 0x00, 0x00,
    0x10, 0x00, 0x00, 0x00, 0x00, 0x00, 0x16, 0x00, 0x1c, 0x00, 0x18, 0x00,
    0x00, 0x00, 0x14, 0x00, 0x10, 0x00, 0x0c, 0x00, 0x00, 0x00, 0x00, 0x00,
    0x08, 0x00, 0x07, 0x00, 0x16, 0x00, 0x00, 0x00, 0x00, 0x00, 0x00, 0x01,
    0x14, 0x00, 0x00, 0x00, 0x20, 0x00, 0x00, 0x00, 0x20, 0x00, 0x00, 0x00,
    0x01, 0x00, 0x00, 0x00, 0x40, 0x00, 0x00, 0x00, 0x02, 0x00, 0x00, 0x00,
    0xff, 0xff, 0xff, 0xff, 0x02, 0x00, 0x00, 0x00, 0x04, 0x00, 0x04, 0x00,
    0x04, 0x00, 0x00, 0x00, 0x21, 0x00, 0x00, 0x00, 0x73, 0x65, 0x72, 0x76,
    0x69, 0x6e, 0x67, 0x5f, 0x64, 0x65, 0x66, 0x61, 0x75, 0x6c, 0x74, 0x5f,
    0x6b, 0x65, 0x72, 0x61, 0x73, 0x5f, 0x74, 0x65, 0x6e, 0x73, 0x6f, 0x72,
    0x5f, 0x32, 0x30, 0x3a, 0x30, 0x00, 0x00, 0x00, 0x02, 0x00, 0x00, 0x00,
    0x01, 0x00, 0x00, 0x00, 0x02, 0x00, 0x00, 0x00, 0x02, 0x00, 0x00, 0x00,
    0x20, 0x00, 0x00, 0x00, 0x04, 0x00, 0x00, 0x00, 0xf4, 0xff, 0xff, 0xff,
    0x19, 0x00, 0x00, 0x00, 0x00, 0x00, 0x00, 0x19, 0x0c, 0x00, 0x0c, 0x00,
    0x0b, 0x00, 0x00, 0x00, 0x00, 0x00, 0x04, 0x00, 0x0c, 0x00, 0x00, 0x00,
    0x09, 0x00, 0x00, 0x00, 0x00, 0x00, 0x00, 0x09, 
};

const unsigned int room_classifier_tflite_len = 3620;
